<unk>	0
<s>	0
</s>	0
<pad>	0
<0x00>	0
<0x01>	0
<0x02>	0
<0x03>	0
<0x04>	0
<0x05>	0
<0x06>	0
<0x07>	0
<0x08>	0
<0x09>	0
<0x0A>	0
<0x0B>	0
<0x0C>	0
<0x0D>	0
<0x0E>	0
<0x0F>	0
<0x10>	0
<0x11>	0
<0x12>	0
<0x13>	0
<0x14>	0
<0x15>	0
<0x16>	0
<0x17>	0
<0x18>	0
<0x19>	0
<0x1A>	0
<0x1B>	0
<0x1C>	0
<0x1D>	0
<0x1E>	0
<0x1F>	0
<0x20>	0
<0x21>	0
<0x22>	0
<0x23>	0
<0x24>	0
<0x25>	0
<0x26>	0
<0x27>	0
<0x28>	0
<0x29>	0
<0x2A>	0
<0x2B>	0
<0x2C>	0
<0x2D>	0
<0x2E>	0
<0x2F>	0
<0x30>	0
<0x31>	0
<0x32>	0
<0x33>	0
<0x34>	0
<0x35>	0
<0x36>	0
<0x37>	0
<0x38>	0
<0x39>	0
<0x3A>	0
<0x3B>	0
<0x3C>	0
<0x3D>	0
<0x3E>	0
<0x3F>	0
<0x40>	0
<0x41>	0
<0x42>	0
<0x43>	0
<0x44>	0
<0x45>	0
<0x46>	0
<0x47>	0
<0x48>	0
<0x49>	0
<0x4A>	0
<0x4B>	0
<0x4C>	0
<0x4D>	0
<0x4E>	0
<0x4F>	0
<0x50>	0
<0x51>	0
<0x52>	0
<0x53>	0
<0x54>	0
<0x55>	0
<0x56>	0
<0x57>	0
<0x58>	0
<0x59>	0
<0x5A>	0
<0x5B>	0
<0x5C>	0
<0x5D>	0
<0x5E>	0
<0x5F>	0
<0x60>	0
<0x61>	0
<0x62>	0
<0x63>	0
<0x64>	0
<0x65>	0
<0x66>	0
<0x67>	0
<0x68>	0
<0x69>	0
<0x6A>	0
<0x6B>	0
<0x6C>	0
<0x6D>	0
<0x6E>	0
<0x6F>	0
<0x70>	0
<0x71>	0
<0x72>	0
<0x73>	0
<0x74>	0
<0x75>	0
<0x76>	0
<0x77>	0
<0x78>	0
<0x79>	0
<0x7A>	0
<0x7B>	0
<0x7C>	0
<0x7D>	0
<0x7E>	0
<0x7F>	0
<0x80>	0
<0x81>	0
<0x82>	0
<0x83>	0
<0x84>	0
<0x85>	0
<0x86>	0
<0x87>	0
<0x88>	0
<0x89>	0
<0x8A>	0
<0x8B>	0
<0x8C>	0
<0x8D>	0
<0x8E>	0
<0x8F>	0
<0x90>	0
<0x91>	0
<0x92>	0
<0x93>	0
<0x94>	0
<0x95>	0
<0x96>	0
<0x97>	0
<0x98>	0
<0x99>	0
<0x9A>	0
<0x9B>	0
<0x9C>	0
<0x9D>	0
<0x9E>	0
<0x9F>	0
<0xA0>	0
<0xA1>	0
<0xA2>	0
<0xA3>	0
<0xA4>	0
<0xA5>	0
<0xA6>	0
<0xA7>	0
<0xA8>	0
<0xA9>	0
<0xAA>	0
<0xAB>	0
<0xAC>	0
<0xAD>	0
<0xAE>	0
<0xAF>	0
<0xB0>	0
<0xB1>	0
<0xB2>	0
<0xB3>	0
<0xB4>	0
<0xB5>	0
<0xB6>	0
<0xB7>	0
<0xB8>	0
<0xB9>	0
<0xBA>	0
<0xBB>	0
<0xBC>	0
<0xBD>	0
<0xBE>	0
<0xBF>	0
<0xC0>	0
<0xC1>	0
<0xC2>	0
<0xC3>	0
<0xC4>	0
<0xC5>	0
<0xC6>	0
<0xC7>	0
<0xC8>	0
<0xC9>	0
<0xCA>	0
<0xCB>	0
<0xCC>	0
<0xCD>	0
<0xCE>	0
<0xCF>	0
<0xD0>	0
<0xD1>	0
<0xD2>	0
<0xD3>	0
<0xD4>	0
<0xD5>	0
<0xD6>	0
<0xD7>	0
<0xD8>	0
<0xD9>	0
<0xDA>	0
<0xDB>	0
<0xDC>	0
<0xDD>	0
<0xDE>	0
<0xDF>	0
<0xE0>	0
<0xE1>	0
<0xE2>	0
<0xE3>	0
<0xE4>	0
<0xE5>	0
<0xE6>	0
<0xE7>	0
<0xE8>	0
<0xE9>	0
<0xEA>	0
<0xEB>	0
<0xEC>	0
<0xED>	0
<0xEE>	0
<0xEF>	0
<0xF0>	0
<0xF1>	0
<0xF2>	0
<0xF3>	0
<0xF4>	0
<0xF5>	0
<0xF6>	0
<0xF7>	0
<0xF8>	0
<0xF9>	0
<0xFA>	0
<0xFB>	0
<0xFC>	0
<0xFD>	0
<0xFE>	0
<0xFF>	0
▁t	-0
he	-1
▁a	-2
ou	-3
▁s	-4
▁m	-5
▁w	-6
in	-7
re	-8
ha	-9
▁the	-10
nd	-11
▁b	-12
is	-13
or	-14
▁f	-15
▁I	-16
er	-17
ll	-18
it	-19
on	-20
▁d	-21
▁c	-22
▁n	-23
▁l	-24
▁y	-25
es	-26
en	-27
▁th	-28
ar	-29
▁h	-30
▁o	-31
▁to	-32
▁you	-33
▁p	-34
▁T	-35
hat	-36
▁A	-37
▁he	-38
st	-39
ve	-40
ot	-41
▁and	-42
ow	-43
ing	-44
▁of	-45
an	-46
om	-47
▁g	-48
at	-49
▁be	-50
▁W	-51
se	-52
▁my	-53
▁in	-54
▁ha	-55
ce	-56
le	-57
ay	-58
ld	-59
ir	-60
et	-61
ed	-62
ut	-63
▁B	-64
▁me	-65
im	-66
▁S	-67
ith	-68
▁not	-69
▁H	-70
ch	-71
▁that	-72
▁is	-73
▁M	-74
gh	-75
▁And	-76
▁for	-77
▁u	-78
ke	-79
▁C	-80
▁we	-81
our	-82
oo	-83
ill	-84
▁e	-85
▁with	-86
her	-87
▁it	-88
ent	-89
▁your	-90
ad	-91
ri	-92
▁O	-93
▁thou	-94
▁st	-95
▁k	-96
▁L	-97
ome	-98
▁his	-99
▁F	-100
▁G	-101
ght	-102
EN	-103
ord	-104
▁re	-105
id	-106
ra	-107
▁The	-108
▁have	-109
▁him	-110
IN	-111
ly	-112
▁li	-113
as	-114
▁P	-115
▁this	-116
ur	-117
IO	-118
al	-119
▁so	-120
▁as	-121
▁de	-122
▁on	-123
▁R	-124
ore	-125
ro	-126
▁N	-127
hi	-128
ould	-129
ood	-130
AR	-131
ck	-132
ain	-133
ver	-134
▁Y	-135
est	-136
▁sha	-137
▁thy	-138
ess	-139
▁will	-140
▁do	-141
ea	-142
▁no	-143
am	-144
▁E	-145
▁but	-146
▁D	-147
us	-148
▁se	-149
US	-150
if	-151
▁'	-152
ge	-153
▁all	-154
and	-155
▁Th	-156
▁su	-157
ake	-158
▁To	-159
▁her	-160
ru	-161
ion	-162
▁an	-163
▁K	-164
▁lo	-165
ard	-166
ter	-167
han	-168
▁sp	-169
ell	-170
ear	-171
▁thee	-172
▁fa	-173
▁shall	-174
▁our	-175
▁by	-176
th	-177
UC	-178
▁are	-179
il	-180
ING	-181
▁ne	-182
▁kn	-183
rom	-184
ho	-185
▁v	-186
▁That	-187
ER	-188
OR	-189
ast	-190
ct	-191
ous	-192
▁what	-193
▁sh	-194
ight	-195
ul	-196
ET	-197
ant	-198
▁up	-199
sel	-200
▁good	-201
qu	-202
▁But	-203
art	-204
row	-205
ath	-206
ine	-207
▁com	-208
▁mu	-209
▁lord	-210
hich	-211
nt	-212
▁pr	-213
▁man	-214
▁at	-215
▁V	-216
one	-217
▁whe	-218
▁con	-219
▁What	-220
▁am	-221
end	-222
ic	-223
ES	-224
ble	-225
ry	-226
ong	-227
▁from	-228
ie	-229
▁she	-230
▁bl	-231
ive	-232
ven	-233
▁go	-234
▁For	-235
▁more	-236
▁them	-237
em	-238
▁was	-239
IC	-240
out	-241
au	-242
▁sir	-243
other	-244
are	-245
oth	-246
ol	-247
▁if	-248
▁He	-249
▁now	-250
▁hat	-251
▁there	-252
▁would	-253
AN	-254
ost	-255
▁know	-256
▁can	-257
LO	-258
ind	-259
ers	-260
IUS	-261
ep	-262
self	-263
ARD	-264
▁say	-265
▁KING	-266
ather	-267
ond	-268
ate	-269
res	-270
fe	-271
▁sw	-272
▁here	-273
▁love	-274
▁their	-275
▁My	-276
▁or	-277
▁than	-278
▁br	-279
pp	-280
--	-281
▁us	-282
▁king	-283
▁they	-284
▁then	-285
all	-286
▁ar	-287
od	-288
▁let	-289
▁un	-290
ig	-291
▁wor	-292
ure	-293
ink	-294
▁may	-295
hy	-296
ame	-297
▁come	-298
fore	-299
ort	-300
▁As	-301
▁qu	-302
ook	-303
▁well	-304
el	-305
ish	-306
LI	-307
▁Whe	-308
▁j	-309
KE	-310
ves	-311
▁one	-312
▁hath	-313
irst	-314
▁make	-315
▁You	-316
▁gra	-317
reat	-318
ak	-319
ng	-320
▁must	-321
gain	-322
ound	-323
▁were	-324
▁ho	-325
▁see	-326
▁should	-327
▁like	-328
ci	-329
▁pro	-330
ue	-331
eak	-332
TIO	-333
▁sa	-334
ity	-335
▁pl	-336
▁mad	-337
▁father	-338
▁had	-339
um	-340
▁did	-341
▁upon	-342
OM	-343
ime	-344
pe	-345
▁too	-346
ice	-347
ON	-348
▁J	-349
▁dis	-350
ence	-351
▁death	-352
ward	-353
▁which	-354
▁en	-355
▁If	-356
ose	-357
own	-358
▁speak	-359
▁po	-360
▁when	-361
ful	-362
▁out	-363
▁fri	-364
▁how	-365
entle	-366
io	-367
pt	-368
un	-369
ICH	-370
▁again	-371
▁RICH	-372
▁tru	-373
OL	-374
de	-375
UKE	-376
▁DUKE	-377
man	-378
▁heart	-379
▁yet	-380
ick	-381
▁hand	-382
very	-383
▁With	-384
▁RICHARD	-385
▁who	-386
ENTIO	-387
▁Thou	-388
ign	-389
▁We	-390
▁some	-391
ance	-392
▁Which	-393
▁hon	-394
▁mar	-395
nce	-396
▁r	-397
ies	-398
▁In	-399
▁son	-400
ire	-401
▁off	-402
▁mine	-403
ist	-404
INC	-405
▁al	-406
ince	-407
har	-408
orn	-409
ack	-410
▁Why	-411
wn	-412
▁Of	-413
▁God	-414
EL	-415
▁hea	-416
▁such	-417
▁time	-418
oy	-419
▁First	-420
▁hear	-421
▁So	-422
ness	-423
▁brother	-424
ec	-425
▁these	-426
▁Cl	-427
▁blood	-428
▁ab	-429
▁ex	-430
ither	-431
▁give	-432
UE	-433
▁fo	-434
▁Is	-435
▁No	-436
▁day	-437
▁ear	-438
▁ro	-439
▁look	-440
▁think	-441
▁II	-442
▁How	-443
▁life	-444
▁tell	-445
EST	-446
ise	-447
▁ey	-448
AB	-449
eet	-450
▁where	-451
UCH	-452
▁take	-453
▁word	-454
oul	-455
▁friend	-456
▁Q	-457
ther	-458
▁This	-459
ag	-460
age	-461
LOUC	-462
▁des	-463
ESTER	-464
▁GLOUC	-465
▁GLOUCESTER	-466
ef	-467
een	-468
erv	-469
▁Come	-470
ady	-471
ust	-472
rown	-473
▁gentle	-474
ings	-475
▁Lord	-476
▁U	-477
▁ri	-478
urse	-479
ave	-480
RY	-481
ase	-482
▁Rome	-483
tis	-484
UEEN	-485
▁art	-486
▁lea	-487
▁VINC	-488
▁QUEEN	-489
▁VINCENTIO	-490
way	-491
▁OF	-492
▁war	-493
▁most	-494
▁honour	-495
▁fl	-496
▁Mar	-497
▁much	-498
UM	-499
LAN	-500
▁sl	-501
▁Where	-502
AM	-503
urn	-504
▁made	-505
▁tw	-506
ment	-507
▁fear	-508
▁hast	-509
▁Now	-510
▁Who	-511
▁bet	-512
ENRY	-513
aught	-514
▁HENRY	-515
▁cou	-516
▁great	-517
▁Be	-518
ber	-519
not	-520
▁bre	-521
ved	-522
▁never	-523
▁new	-524
▁fair	-525
cc	-526
ee	-527
ss	-528
▁af	-529
ower	-530
ap	-531
igh	-532
▁AN	-533
▁men	-534
itt	-535
aster	-536
orrow	-537
▁Your	-538
uke	-539
▁It	-540
iz	-541
ough	-542
ORK	-543
▁YORK	-544
▁any	-545
▁call	-546
▁part	-547
▁Or	-548
▁ra	-549
ation	-550
INIUS	-551
ST	-552
ide	-553
ree	-554
▁ad	-555
▁comm	-556
▁cannot	-557
▁pre	-558
▁true	-559
▁stand	-560
▁heaven	-561
▁PET	-562
▁name	-563
AU	-564
▁been	-565
▁pray	-566
old	-567
▁cl	-568
hing	-569
▁sweet	-570
DW	-571
▁EDW	-572
▁per	-573
▁ple	-574
▁EDWARD	-575
ple	-576
▁GR	-577
,--	-578
▁doth	-579
▁noble	-580
▁wr	-581
ears	-582
▁own	-583
▁LUC	-584
ouse	-585
▁done	-586
▁There	-587
ull	-588
▁tr	-589
▁way	-590
ife	-591
▁head	-592
▁other	-593
RO	-594
aw	-595
▁mean	-596
▁pres	-597
UT	-598
▁Ed	-599
▁bear	-600
red	-601
▁sc	-602
▁nor	-603
AP	-604
EO	-605
▁Ay	-606
OMEO	-607
▁When	-608
▁soul	-609
▁very	-610
▁ROMEO	-611
▁Edward	-612
ass	-613
▁An	-614
ENEN	-615
aint	-616
ving	-617
▁both	-618
▁MENEN	-619
▁night	-620
▁world	-621
▁before	-622
▁MENENIUS	-623
ace	-624
ger	-625
▁By	-626
ause	-627
▁queen	-628
li	-629
▁Let	-630
TH	-631
▁mo	-632
▁chi	-633
aughter	-634
RUCH	-635
▁Here	-636
▁Then	-637
RUCHIO	-638
▁PETRUCHIO	-639
able	-640
▁cont	-641
▁dead	-642
▁down	-643
TES	-644
▁app	-645
ite	-646
▁wh	-647
▁ke	-648
▁rem	-649
▁being	-650
per	-651
▁myself	-652
ab	-653
les	-654
▁MAR	-655
▁Than	-656
▁arm	-657
▁beg	-658
ilt	-659
ORIO	-660
LANUS	-661
▁thus	-662
▁CORIO	-663
▁leave	-664
▁CORIOLANUS	-665
▁Sec	-666
▁grace	-667
▁Second	-668
▁unt	-669
ction	-670
ress	-671
▁Nor	-672
▁eyes	-673
▁LE	-674
▁im	-675
▁mother	-676
led	-677
▁ma	-678
less	-679
▁old	-680
ran	-681
land	-682
INA	-683
▁rep	-684
itiz	-685
▁ever	-686
itizen	-687
lo	-688
ps	-689
sw	-690
▁She	-691
▁int	-692
▁live	-693
▁long	-694
▁wife	-695
▁child	-696
▁wom	-697
▁poor	-698
▁friends	-699
▁III	-700
▁away	-701
▁cons	-702
▁Go	-703
▁might	-704
eace	-705
ford	-706
nder	-707
▁Sir	-708
▁die	-709
▁stay	-710
▁comes	-711
ks	-712
oud	-713
atch	-714
wick	-715
▁War	-716
▁many	-717
▁ru	-718
▁rest	-719
▁house	-720
▁pe	-721
▁crown	-722
▁Warwick	-723
ff	-724
ows	-725
▁le	-726
▁cour	-727
Tis	-728
come	-729
ison	-730
▁His	-731
▁ent	-732
▁har	-733
▁thought	-734
LA	-735
SAB	-736
ELLA	-737
▁lie	-738
▁ISAB	-739
▁ISABELLA	-740
erc	-741
ian	-742
iss	-743
uck	-744
RAN	-745
▁set	-746
▁daughter	-747
che	-748
▁Well	-749
▁Romeo	-750
▁nothing	-751
ULI	-752
ors	-753
ONTES	-754
ULIET	-755
atter	-756
▁tong	-757
▁JULIET	-758
▁better	-759
▁LEONTES	-760
▁St	-761
▁VI	-762
▁Nay	-763
ittle	-764
▁gone	-765
▁prince	-766
rant	-767
AD	-768
ADY	-769
int	-770
ought	-771
▁LADY	-772
AL	-773
CE	-774
me	-775
ENCE	-776
well	-777
▁tri	-778
ied	-779
▁Pro	-780
▁keep	-781
▁news	-782
os	-783
▁res	-784
▁sle	-785
▁wit	-786
▁best	-787
▁against	-788
ces	-789
for	-790
hall	-791
ious	-792
▁Serv	-793
▁those	-794
ier	-795
ool	-796
hard	-797
▁SIC	-798
▁acc	-799
▁gri	-800
▁comp	-801
▁hence	-802
▁little	-803
▁Citizen	-804
▁SICINIUS	-805
▁Not	-806
▁hour	-807
▁lords	-808
▁thing	-809
une	-810
akes	-811
▁put	-812
ardon	-813
▁face	-814
lse	-815
ret	-816
sed	-817
ult	-818
▁On	-819
llow	-820
▁end	-821
▁kind	-822
EY	-823
ft	-824
▁two	-825
▁still	-826
▁young	-827
ont	-828
ork	-829
ield	-830
▁pri	-831
▁himself	-832
ud	-833
alk	-834
▁Thy	-835
▁pur	-836
▁LUCIO	-837
▁power	-838
ale	-839
ert	-840
ins	-841
▁IV	-842
▁Ric	-843
▁cha	-844
▁Richard	-845
▁CL	-846
▁sub	-847
▁count	-848
▁therefore	-849
TI	-850
cl	-851
ew	-852
▁gu	-853
ried	-854
cious	-855
iness	-856
▁dear	-857
▁else	-858
▁unto	-859
▁first	-860
▁peace	-861
▁BR	-862
▁sm	-863
ason	-864
hile	-865
▁Have	-866
▁Will	-867
▁duke	-868
▁till	-869
▁could	-870
ail	-871
ect	-872
ile	-873
uty	-874
▁co	-875
▁hus	-876
▁tra	-877
▁back	-878
▁words	-879
▁though	-880
ETH	-881
LIZ	-882
▁bid	-883
▁dre	-884
▁tre	-885
ABETH	-886
▁ELIZ	-887
▁York	-888
▁fell	-889
▁find	-890
▁need	-891
▁earth	-892
▁tongue	-893
▁ELIZABETH	-894
ius	-895
yal	-896
band	-897
ople	-898
▁lady	-899
▁thine	-900
ty	-901
IAN	-902
men	-903
eech	-904
orse	-905
▁bra	-906
▁hel	-907
▁home	-908
▁hope	-909
▁seem	-910
▁forth	-911
ark	-912
eth	-913
ray	-914
enry	-915
▁Yet	-916
▁high	-917
▁Henry	-918
▁husband	-919
vere	-920
▁Good	-921
▁right	-922
get	-923
▁chan	-924
tw	-925
ARW	-926
ICK	-927
uth	-928
▁ban	-929
▁WARW	-930
▁mind	-931
▁people	-932
▁WARWICK	-933
ds	-934
ix	-935
AST	-936
ach	-937
hip	-938
rer	-939
▁Do	-940
▁All	-941
▁che	-942
ister	-943
▁char	-944
▁conf	-945
▁show	-946
▁Shall	-947
ged	-948
▁bri	-949
▁hands	-950
HAM	-951
fort	-952
▁imp	-953
▁joy	-954
▁why	-955
▁Nurse	-956
▁cause	-957
▁master	-958
UL	-959
▁gl	-960
APUL	-961
▁law	-962
▁They	-963
▁mist	-964
▁none	-965
▁once	-966
▁said	-967
▁serv	-968
APULET	-969
▁CAPULET	-970
▁fort	-971
▁every	-972
GE	-973
IL	-974
MIO	-975
ren	-976
▁bod	-977
ousin	-978
▁bring	-979
RI	-980
bt	-981
▁dou	-982
UCK	-983
eed	-984
UTUS	-985
ates	-986
▁BUCK	-987
▁pass	-988
INGHAM	-989
▁BRUTUS	-990
▁please	-991
▁BUCKINGHAM	-992
lt	-993
BRO	-994
ESS	-995
iet	-996
ird	-997
▁BOL	-998
BROKE	-999
RANIO	-1000
▁From	-1001
▁light	-1002
▁BOLING	-1003
▁TRANIO	-1004
▁BOLINGBROKE	-1005
eel	-1006
▁wo	-1007
swer	-1008
vost	-1009
▁bes	-1010
▁nat	-1011
▁thr	-1012
▁royal	-1013
▁tears	-1014
▁whose	-1015
▁present	-1016
mb	-1017
ary	-1018
cle	-1019
its	-1020
▁Our	-1021
▁boy	-1022
▁came	-1023
▁just	-1024
▁since	-1025
lf	-1026
vy	-1027
ock	-1028
ory	-1029
roke	-1030
▁dev	-1031
▁full	-1032
▁after	-1033
▁heard	-1034
▁under	-1035
▁wrong	-1036
▁pardon	-1037
NE	-1038
GAR	-1039
pose	-1040
GARET	-1041
▁happ	-1042
▁land	-1043
▁place	-1044
▁MARGARET	-1045
ATH	-1046
ens	-1047
AMIL	-1048
▁ere	-1049
▁mis	-1050
▁King	-1051
▁last	-1052
▁state	-1053
sand	-1054
▁care	-1055
▁hold	-1056
▁kill	-1057
▁meet	-1058
▁sorrow	-1059
ORD	-1060
GELO	-1061
cent	-1062
esty	-1063
▁GRE	-1064
▁eye	-1065
ition	-1066
▁help	-1067
▁whom	-1068
▁ANGELO	-1069
▁thousand	-1070
▁Eng	-1071
▁fal	-1072
ARINA	-1073
▁less	-1074
arence	-1075
▁answer	-1076
▁follow	-1077
SC	-1078
irt	-1079
▁Sh	-1080
▁ch	-1081
cius	-1082
▁bus	-1083
▁far	-1084
▁pat	-1085
▁sun	-1086
ceive	-1087
▁KATH	-1088
▁enem	-1089
▁fool	-1090
▁weep	-1091
selves	-1092
▁about	-1093
▁shame	-1094
▁hither	-1095
▁Clarence	-1096
▁KATHARINA	-1097
iol	-1098
urde	-1099
▁fall	-1100
▁maid	-1101
▁Marcius	-1102
▁gentleman	-1103
day	-1104
▁ob	-1105
asure	-1106
▁into	-1107
▁Un	-1108
▁Up	-1109
ALUS	-1110
▁ESC	-1111
▁coun	-1112
▁hate	-1113
▁court	-1114
▁grief	-1115
▁makes	-1116
▁cousin	-1117
▁ESCALUS	-1118
▁gracious	-1119
air	-1120
▁Al	-1121
imes	-1122
ject	-1123
▁stri	-1124
▁woman	-1125
iv	-1126
ove	-1127
▁Hath	-1128
▁stre	-1129
▁turn	-1130
▁worth	-1131
▁comfort	-1132
alt	-1133
ild	-1134
ons	-1135
deed	-1136
ices	-1137
ling	-1138
▁bed	-1139
▁hum	-1140
▁DUCH	-1141
▁Duke	-1142
▁dost	-1143
▁talk	-1144
▁wilt	-1145
▁sleep	-1146
urderer	-1147
▁DUCHESS	-1148
ERC	-1149
itor	-1150
ount	-1151
pher	-1152
▁bel	-1153
▁Ange	-1154
▁body	-1155
▁over	-1156
▁i	-1157
ute	-1158
▁bu	-1159
▁Her	-1160
▁att	-1161
▁dra	-1162
▁inst	-1163
morrow	-1164
▁fault	-1165
▁sound	-1166
▁thank	-1167
▁Angelo	-1168
IA	-1169
ised	-1170
▁adv	-1171
ience	-1172
▁play	-1173
AMILLO	-1174
▁false	-1175
▁prove	-1176
▁indeed	-1177
▁CAMILLO	-1178
▁another	-1179
ily	-1180
▁vo	-1181
ieve	-1182
omet	-1183
▁has	-1184
▁ret	-1185
▁ser	-1186
▁use	-1187
▁wel	-1188
▁Even	-1189
▁deed	-1190
▁Would	-1191
▁sword	-1192
▁fellow	-1193
▁Provost	-1194
ENS	-1195
ORT	-1196
ade	-1197
ans	-1198
▁bo	-1199
▁HORT	-1200
▁even	-1201
▁pers	-1202
▁vill	-1203
▁fight	-1204
▁matter	-1205
▁HORTENS	-1206
▁fortune	-1207
RIAR	-1208
hold	-1209
▁Upon	-1210
▁sent	-1211
▁FRIAR	-1212
▁grave	-1213
▁prison	-1214
▁sovere	-1215
▁country	-1216
▁HORTENSIO	-1217
,'	-1218
STA	-1219
eal	-1220
ury	-1221
APTI	-1222
▁Are	-1223
▁cur	-1224
▁dan	-1225
▁merc	-1226
▁send	-1227
▁virt	-1228
▁BAPTI	-1229
▁doubt	-1230
▁years	-1231
▁banish	-1232
▁rather	-1233
▁BAPTISTA	-1234
YC	-1235
mp	-1236
▁Ty	-1237
▁gr	-1238
OLYC	-1239
fect	-1240
ouch	-1241
pect	-1242
▁AUT	-1243
▁COM	-1244
▁ass	-1245
▁hang	-1246
▁want	-1247
▁wish	-1248
OLYCUS	-1249
▁reven	-1250
▁truth	-1251
▁COMINIUS	-1252
▁business	-1253
▁AUTOLYCUS	-1254
.'	-1255
dd	-1256
▁At	-1257
▁CLAR	-1258
▁More	-1259
▁disc	-1260
▁lies	-1261
▁only	-1262
▁Third	-1263
▁shalt	-1264
▁reason	-1265
▁CLARENCE	-1266
ms	-1267
ere	-1268
ior	-1269
pen	-1270
ENES	-1271
▁cra	-1272
▁sea	-1273
pherd	-1274
rance	-1275
▁arms	-1276
▁stra	-1277
▁dream	-1278
▁breath	-1279
▁command	-1280
ENV	-1281
der	-1282
▁gi	-1283
OLIO	-1284
ener	-1285
▁NOR	-1286
▁lay	-1287
▁sec	-1288
▁BENV	-1289
▁prom	-1290
▁Clown	-1291
▁stran	-1292
▁Gentle	-1293
▁BENVOLIO	-1294
SP	-1295
ERO	-1296
ROSP	-1297
UMIO	-1298
▁sen	-1299
▁Take	-1300
▁holy	-1301
▁pity	-1302
▁wind	-1303
▁PROSP	-1304
▁proud	-1305
▁remem	-1306
▁somet	-1307
▁GRUMIO	-1308
▁enough	-1309
▁content	-1310
▁PROSPERO	-1311
ia	-1312
hed	-1313
ken	-1314
▁Su	-1315
ERCU	-1316
ator	-1317
▁Did	-1318
▁bea	-1319
▁Kate	-1320
▁dare	-1321
▁fare	-1322
▁sold	-1323
▁spir	-1324
▁MERCU	-1325
▁lives	-1326
▁swear	-1327
▁three	-1328
▁MERCUTIO	-1329
▁Murderer	-1330
IS	-1331
ike	-1332
eter	-1333
▁dep	-1334
▁get	-1335
▁Were	-1336
▁gods	-1337
▁tend	-1338
▁nature	-1339
▁within	-1340
▁Servant	-1341
▁villain	-1342
▁welcome	-1343
▁LUCENTIO	-1344
OMP	-1345
ars	-1346
ham	-1347
LAND	-1348
▁gre	-1349
▁saw	-1350
ester	-1351
▁POMP	-1352
▁foul	-1353
▁free	-1354
▁kiss	-1355
▁happy	-1356
▁madam	-1357
▁sister	-1358
▁things	-1359
▁mistress	-1360
▁sovereign	-1361
AUL	-1362
any	-1363
apt	-1364
att	-1365
hal	-1366
unt	-1367
ient	-1368
vers	-1369
▁Was	-1370
▁Give	-1371
▁PAUL	-1372
▁city	-1373
▁break	-1374
▁means	-1375
▁yield	-1376
▁PAULINA	-1377
▁beseech	-1378
▁subject	-1379
eft	-1380
ery	-1381
▁aw	-1382
ague	-1383
▁Say	-1384
▁den	-1385
▁mer	-1386
onder	-1387
▁Look	-1388
▁born	-1389
▁oath	-1390
gainst	-1391
gether	-1392
▁horse	-1393
▁yours	-1394
▁GREMIO	-1395
▁POMPEY	-1396
LIX	-1397
NIA	-1398
anc	-1399
▁PO	-1400
OLUM	-1401
balt	-1402
ches	-1403
usic	-1404
▁Com	-1405
▁dru	-1406
▁tem	-1407
▁fire	-1408
▁supp	-1409
▁POLIX	-1410
▁VOLUM	-1411
▁faith	-1412
▁looks	-1413
▁while	-1414
▁wound	-1415
▁bloody	-1416
▁England	-1417
▁VOLUMNIA	-1418
▁yourself	-1419
▁POLIXENES	-1420
ey	-1421
ues	-1422
INGS	-1423
▁car	-1424
▁maj	-1425
▁spo	-1426
▁win	-1427
enger	-1428
▁Fare	-1429
▁HAST	-1430
▁cond	-1431
▁requ	-1432
centio	-1433
ingman	-1434
▁common	-1435
▁traitor	-1436
▁HASTINGS	-1437
▁Servingman	-1438
by	-1439
AUR	-1440
rong	-1441
▁Can	-1442
▁May	-1443
▁def	-1444
▁lam	-1445
▁mon	-1446
broke	-1447
▁Hast	-1448
▁LAUR	-1449
▁mark	-1450
ertain	-1451
▁uncle	-1452
essenger	-1453
▁LAURENCE	-1454
▁children	-1455
BY	-1456
BER	-1457
▁Ah	-1458
form	-1459
▁Jul	-1460
▁met	-1461
▁val	-1462
▁beat	-1463
▁late	-1464
▁left	-1465
▁soon	-1466
▁sight	-1467
▁Tybalt	-1468
▁danger	-1469
▁tender	-1470
▁majesty	-1471
▁Therefore	-1472
FF	-1473
ten	-1474
use	-1475
▁Sp	-1476
LIFF	-1477
THUM	-1478
like	-1479
▁sin	-1480
▁woe	-1481
▁days	-1482
▁foot	-1483
▁save	-1484
▁seen	-1485
▁told	-1486
BERLAND	-1487
▁NORTHUM	-1488
▁warrant	-1489
▁NORTHUMBERLAND	-1490
ID	-1491
TA	-1492
rem	-1493
▁Lu	-1494
▁Pl	-1495
ides	-1496
idow	-1497
▁sad	-1498
▁does	-1499
▁gener	-1500
▁mercy	-1501
▁report	-1502
▁return	-1503
▁farewell	-1504
up	-1505
dom	-1506
hes	-1507
rel	-1508
earn	-1509
ring	-1510
ters	-1511
unes	-1512
▁sit	-1513
▁ANNE	-1514
▁deep	-1515
▁gold	-1516
▁sure	-1517
▁heavy	-1518
▁marry	-1519
▁Though	-1520
▁purpose	-1521
▁through	-1522
▁without	-1523
▁together	-1524
bl	-1525
ca	-1526
ERD	-1527
aim	-1528
ict	-1529
▁PR	-1530
INCE	-1531
cher	-1532
enty	-1533
▁Had	-1534
▁cho	-1535
▁ill	-1536
▁rec	-1537
ments	-1538
▁Clif	-1539
▁Mont	-1540
▁cold	-1541
▁ears	-1542
▁grow	-1543
▁lost	-1544
ignior	-1545
▁deser	-1546
▁nurse	-1547
▁Juliet	-1548
▁PRINCE	-1549
▁person	-1550
▁strange	-1551
▁Clifford	-1552
az	-1553
mer	-1554
ush	-1555
▁MI	-1556
▁Ri	-1557
ains	-1558
ceed	-1559
ours	-1560
ross	-1561
vent	-1562
▁Bol	-1563
▁Cam	-1564
▁Cor	-1565
▁ask	-1566
▁wat	-1567
▁Tell	-1568
▁disp	-1569
▁suff	-1570
▁liege	-1571
▁pluck	-1572
▁times	-1573
▁Boling	-1574
▁spirit	-1575
▁believe	-1576
▁thyself	-1577
▁Bolingbroke	-1578
ets	-1579
ift	-1580
▁Ha	-1581
▁Wh	-1582
▁jo	-1583
ever	-1584
▁One	-1585
▁age	-1586
▁air	-1587
▁sil	-1588
▁Away	-1589
▁Some	-1590
▁heir	-1591
▁loss	-1592
▁says	-1593
▁Whose	-1594
▁learn	-1595
▁point	-1596
▁Should	-1597
▁Signior	-1598
aid	-1599
ced	-1600
ial	-1601
ner	-1602
▁cry	-1603
▁fly	-1604
▁past	-1605
▁devil	-1606
▁friar	-1607
▁haste	-1608
▁trust	-1609
▁Coriol	-1610
▁desire	-1611
▁ground	-1612
▁instru	-1613
▁entreat	-1614
▁justice	-1615
▁Farewell	-1616
gu	-1617
sh	-1618
aud	-1619
ges	-1620
ina	-1621
ixt	-1622
ined	-1623
outh	-1624
▁Sen	-1625
▁mur	-1626
▁ord	-1627
▁vis	-1628
aking	-1629
night	-1630
▁Like	-1631
▁Pray	-1632
▁betw	-1633
▁bold	-1634
▁fast	-1635
▁near	-1636
▁found	-1637
▁slain	-1638
▁France	-1639
▁toward	-1640
▁service	-1641
▁remember	-1642
▁straight	-1643
IZ	-1644
LE	-1645
UF	-1646
LOR	-1647
▁Gl	-1648
IZEL	-1649
UFID	-1650
oman	-1651
ution	-1652
▁FLOR	-1653
▁hard	-1654
▁wear	-1655
▁AUFID	-1656
▁These	-1657
▁alone	-1658
▁curse	-1659
▁quick	-1660
▁beauty	-1661
▁strong	-1662
▁worthy	-1663
▁married	-1664
▁AUFIDIUS	-1665
▁FLORIZEL	-1666
▁Messenger	-1667
xt	-1668
ION	-1669
TON	-1670
let	-1671
▁hu	-1672
adam	-1673
ithe	-1674
ning	-1675
ured	-1676
▁See	-1677
▁bec	-1678
▁run	-1679
▁woo	-1680
audio	-1681
▁exec	-1682
▁open	-1683
▁poss	-1684
▁enemy	-1685
▁grant	-1686
▁ready	-1687
▁touch	-1688
▁Claudio	-1689
▁brought	-1690
▁general	-1691
▁revenge	-1692
!'	-1693
bs	-1694
gs	-1695
ERS	-1696
aunt	-1697
cept	-1698
ible	-1699
inks	-1700
▁fur	-1701
▁inc	-1702
▁inf	-1703
▁iss	-1704
umber	-1705
▁deli	-1706
▁duty	-1707
▁lose	-1708
▁prof	-1709
▁quar	-1710
▁canst	-1711
▁hours	-1712
▁knows	-1713
▁youth	-1714
▁charge	-1715
▁itself	-1716
▁Senator	-1717
▁confess	-1718
▁thoughts	-1719
▁Gentleman	-1720
AS	-1721
EB	-1722
pl	-1723
▁	-1724
e	-1725
t	-1726
o	-1727
a	-1728
h	-1729
s	-1730
r	-1731
n	-1732
i	-1733
l	-1734
d	-1735
u	-1736
m	-1737
y	-1738
,	-1739
w	-1740
f	-1741
c	-1742
g	-1743
I	-1744
b	-1745
p	-1746
:	-1747
.	-1748
A	-1749
v	-1750
k	-1751
T	-1752
'	-1753
E	-1754
O	-1755
N	-1756
R	-1757
S	-1758
L	-1759
C	-1760
;	-1761
W	-1762
U	-1763
H	-1764
M	-1765
B	-1766
?	-1767
G	-1768
!	-1769
D	-1770
-	-1771
F	-1772
Y	-1773
P	-1774
K	-1775
V	-1776
j	-1777
q	-1778
x	-1779
z	-1780
J	-1781
Q	-1782
Z	-1783
X	-1784
3	-1785
&	-1786
$	-1787
